#ifndef __HX83102P_PARAM_H__
#define __HX83102P_PARAM_H__
#include <linux/types.h>
#include <linux/kernel.h>

#define EXTEND_BRIGHTNESS	306
#define UI_MAX_BRIGHTNESS	255
#define UI_DEFAULT_BRIGHTNESS	128

struct lcd_seq_info {
	const unsigned char	*cmd;
	unsigned int	len;
	unsigned int	sleep;
};

#if defined(CONFIG_SEC_AOT)
extern int aot_enabled;
#endif

static const unsigned char SEQ_SET_B9_PW[] = {
	0xB9,
	0x83, 0x10, 0x2E,
};

static const unsigned char SEQ_SET_E9_OTP_SETTING[] = {
	0xE9,
	0xCD,
};

static const unsigned char SEQ_SET_BB_OTP_SETTING[] = {
	0xBB,
	0x01,
};

static const unsigned char SEQ_SET_E9_OTP_SETTING2[] = {
	0xE9,
	0x00,
};

static const unsigned char SEQ_HX83102P_BL[] = {
	0x51,
	0x00, 0x00,
};

static const unsigned char SEQ_HX83102P_BLON[] = {
	0x53,
	0x24,
};

static const unsigned char SEQ_HX83102P_BL_PWM_PREQ[] = {
	0xC9,
	0x04, 0x5D, 0xC0,
};

static const unsigned char SEQ_SET_CABC_PRIORITY_SETTING[] = {
	0xCE,
	0x00, 0x50, 0xF0,
};

static const unsigned char SEQ_SET_D2_VOP[] = {
	0xD2,
	0x29, 0x29,
};

static const unsigned char SEQ_HX83102P_BL_PAD[] = {
	0xD9,
	0x00, 0x01, 0x02,
};

static const unsigned char SEQ_SET_D5_GIP_FORWARD[] = {
	0xD5,
	0x03, 0x02, 0x03, 0x02, 0x18, 0x18, 0x18, 0x18,
	0x19, 0x19, 0x19, 0x19, 0x19, 0x19, 0x19, 0x19,
	0x24, 0x24, 0x24, 0x24, 0x18, 0x18, 0x18, 0x18,
	0x01, 0x00, 0x01, 0x00, 0x07, 0x06, 0x07, 0x06,
	0x05, 0x04, 0x05, 0x04, 0x21, 0x20, 0x21, 0x20,
	0x23, 0x22, 0x23, 0x22,
};

static const unsigned char SEQ_SET_D6_GIP_BACKWARD[] = {
	0xD6,
	0x04, 0x05, 0x04, 0x05, 0x18, 0x18, 0x18, 0x18,
	0x19, 0x19, 0x19, 0x19, 0x18, 0x18, 0x18, 0x18,
	0x24, 0x24, 0x24, 0x24, 0x19, 0x19, 0x19, 0x19,
	0x06, 0x07, 0x06, 0x07, 0x00, 0x01, 0x00, 0x01,
	0x02, 0x03, 0x02, 0x03, 0x22, 0x23, 0x22, 0x23,
	0x20, 0x21, 0x20, 0x21,
};

static const unsigned char SEQ_SET_B4_TIMING[] = {
	0xB4,
	0x98, 0x74, 0x01, 0x01, 0x98, 0x74, 0x68, 0x50,
	0x0F, 0xA0, 0x01, 0x58, 0x00, 0xFF, 0x00, 0xFF,
};

static const unsigned char SEQ_SET_D3_GIP0[] = {
	0xD3,
	0x00, 0x00, 0x00, 0x00, 0x01, 0x04, 0x00, 0x08,
	0x08, 0x27, 0x27, 0x22, 0x2F, 0x11, 0x11, 0x04,
	0x04, 0x32, 0x10, 0x0F, 0x00, 0x0F, 0x32, 0x10,
	0x0D, 0x00, 0x02, 0x32, 0x17, 0x9B, 0x00, 0x10,
	0x00, 0x00, 0x21, 0x2F, 0x01, 0x00, 0x21, 0x38,
	0x01, 0x55,
};

static const unsigned char SEQ_SET_D1_TP_CTRL[] = {
	0xD1,
	0x37, 0x0C, 0xFF,
};

static const unsigned char SEQ_SET_B1_POWER[] = {
	0xB1,
	0x20, 0xFA, 0xAF, 0xAF, 0x29, 0x29, 0xC2, 0x6B,
	0x4D, 0x36, 0x36, 0x36, 0x36, 0x22, 0x21, 0x15,
	0x00,
};

static const unsigned char SEQ_SET_B2_RESOLUTION[] = {
	0xB2,
	0x00, 0xB0, 0x47, 0x80, 0x00, 0x14, 0x44, 0x2C,
};

static const unsigned char SEQ_SET_E0_ANALOG_GAMMA[] = {
	0xE0,
	0x00, 0x04, 0x0B, 0x11, 0x17, 0x25, 0x3D, 0x43,
	0x4B, 0x48, 0x64, 0x6C, 0x74, 0x82, 0x81, 0x88,
	0x9B, 0xAE, 0xAD, 0x56, 0x5D, 0x68, 0x73, 0x00,
	0x04, 0x0B, 0x11, 0x17, 0x25, 0x3D, 0x43, 0x4B,
	0x48, 0x64, 0x6C, 0x74, 0x89, 0x8A, 0x99, 0x9B,
	0xAE, 0xAD, 0x56, 0x5D, 0x68, 0x73,
};

static const unsigned char SEQ_SET_C0_GAMMA_OPT[] = {
	0xC0,
	0x23, 0x23, 0x22, 0x11, 0xA2, 0x17, 0x00, 0x80,
	0x00, 0x00, 0x08, 0x00, 0x22, 0x22,
};

static const unsigned char SEQ_SET_CC_NORMALLY_BLACK[] = {
	0xCC,
	0x02,
};

static const unsigned char SEQ_SET_C8_CP[] = {
	0xC8,
	0x00, 0x04, 0x04, 0x00, 0x00, 0x82,
};

static const unsigned char SEQ_SET_BF_GAS[] = {
	0xBF,
	0xFC, 0x85, 0x80,
};

static const unsigned char SEQ_SET_D0_CASCADE[] = {
	0xD0,
	0x07, 0x04, 0x05,
};

static const unsigned char SEQ_SET_BD_BANK01[] = {
	0xBD,
	0x01,
};

static const unsigned char SEQ_SET_D3_GIP1[] = {
	0xD3,
	0x01, 0x00, 0xFC, 0x00, 0x00, 0x11, 0x10, 0x00,
	0x0E,
};

static const unsigned char SEQ_SET_BD_BANK02[] = {
	0xBD,
	0x02,
};

static const unsigned char SEQ_SET_B4_GAMMA_BIAS[] = {
	0xB4,
	0x4E,
};

static const unsigned char SEQ_SET_BF_VCOM[] = {
	0xBF,
	0xF2,
};

static const unsigned char SEQ_SET_D8_GIP[] = {
	0xD8,
	0xFF, 0xFF, 0xFF, 0xFF, 0xFF, 0xF0, 0xFF, 0xFF,
	0xFF, 0xFF, 0xFF, 0xF0,
};

static const unsigned char SEQ_SET_BD_BANK00[] = {
	0xBD,
	0x00,
};

static const unsigned char SEQ_SET_BD_BANK03[] = {
	0xBD,
	0x03,
};

static const unsigned char SEQ_SET_E7_TOUCH_BANK0[] = {
	0xE7,
	0x12, 0x13, 0x02, 0x02, 0x27, 0x00, 0x0E, 0x0E,
	0x00, 0x10, 0x28, 0x78, 0x1A, 0x78, 0x01, 0x01,
	0x00, 0x00, 0x00, 0x00, 0x17, 0x00,
};

static const unsigned char SEQ_SET_E7_TOUCH_BANK1[] = {
	0xE7,
	0x02, 0x24, 0x01, 0x8B, 0x0D, 0xE2, 0x0E,
};

static const unsigned char SEQ_SET_E7_TOUCH_BANK2[] = {
	0xE7,
	0xFF, 0x01, 0xFD, 0x01, 0x00, 0x00, 0x22, 0x00,
	0x00, 0x00, 0x00, 0x00, 0x00, 0x00, 0x00, 0x00,
	0x00, 0x00, 0x00, 0x00, 0x00, 0x00, 0x00, 0x00,
	0x81, 0x00, 0x02, 0x40,
};

static const unsigned char SEQ_SET_C1_DGC_ON[] = {
	0xC1,
	0x01,
};

static const unsigned char SEQ_SET_C1_DGC_GAMMA1[] = {
	0xC1,
	0x00, 0x03, 0x07, 0x0B, 0x0F, 0x12, 0x16, 0x1A,
	0x1E, 0x22, 0x26, 0x2A, 0x2D, 0x30, 0x34, 0x39,
	0x3D, 0x40, 0x44, 0x48, 0x4F, 0x57, 0x5F, 0x67,
	0x6F, 0x77, 0x7F, 0x86, 0x8E, 0x96, 0x9E, 0xA5,
	0xAE, 0xB5, 0xBD, 0xC4, 0xCC, 0xD4, 0xDC, 0xE4,
	0xEC, 0xF0, 0xF2, 0xF4, 0xF5, 0xF7, 0x25, 0x29,
	0x50, 0xBC, 0x38, 0xFE, 0x53, 0xB9, 0x33, 0xF5,
	0x40, 0xC0,
};

static const unsigned char SEQ_SET_C1_DGC_GAMMA2[] = {
	0xC1,
	0x00, 0x03, 0x07, 0x0B, 0x0F, 0x13, 0x17, 0x1A,
	0x1F, 0x23, 0x26, 0x2A, 0x2E, 0x32, 0x36, 0x3A,
	0x3E, 0x42, 0x46, 0x49, 0x52, 0x5A, 0x62, 0x6A,
	0x72, 0x7A, 0x82, 0x8A, 0x92, 0x9A, 0xA2, 0xA9,
	0xB2, 0xB9, 0xC0, 0xC9, 0xD1, 0xD9, 0xE1, 0xE9,
	0xF1, 0xF5, 0xF7, 0xF9, 0xFB, 0xFD, 0x3A, 0x83,
	0x4F, 0x80, 0x93, 0x00, 0x10, 0x63, 0x6B, 0xAF,
	0xAF, 0xC0,
};

static const unsigned char SEQ_SET_C1_DGC_GAMMA3[] = {
	0xC1,
	0x00, 0x03, 0x07, 0x0C, 0x10, 0x13, 0x18, 0x1C,
	0x20, 0x24, 0x28, 0x2C, 0x30, 0x33, 0x38, 0x3C,
	0x40, 0x44, 0x48, 0x4C, 0x54, 0x5C, 0x64, 0x6C,
	0x74, 0x7C, 0x84, 0x8C, 0x94, 0x9C, 0xA4, 0xAC,
	0xB4, 0xBA, 0xC3, 0xCB, 0xD3, 0xDB, 0xE3, 0xEB,
	0xF3, 0xF7, 0xF9, 0xFB, 0xFD, 0xFF, 0x3C, 0x20,
	0x55, 0x31, 0x50, 0xAB, 0xFE, 0xF5, 0x77, 0x86,
	0x5A, 0xC0,
};

static const unsigned char SEQ_SET_HX83102P_CABC_ON[] = {
	0x55,
	0x01,
};

static const unsigned char SEQ_SET_E4_CABC_BANK0[] = {
	0xE4,
	0x2D, 0x41, 0x2C, 0x99, 0xBF, 0xE6, 0x0C, 0x33,
	0x66, 0x99, 0xCC, 0xFF, 0xEA, 0xFF, 0x03,
};

static const unsigned char SEQ_SET_E4_CABC_BANK1[] = {
	0xE4,
	0xE1, 0xE1, 0xE1, 0xE1, 0xE1, 0xE1, 0xE1, 0xE1,
	0xC7, 0xB2, 0xA0, 0x90, 0x81, 0x75, 0x69, 0x5F,
	0x55, 0x4C, 0x44, 0x3D, 0x36, 0x2E, 0x29, 0x21,
	0x1B, 0x15, 0x10, 0x0D, 0x0C, 0x0C, 0x0C, 0x54,
	0x55, 0x55, 0x55, 0x55, 0x55, 0x55, 0x55,
};

static const unsigned char SEQ_SET_B9_CLOSE_PW[] = {
	0xB9,
	0x00, 0x00, 0x00,
};

static const unsigned char SEQ_SLEEP_OUT[] = {
	0x11,
};

static const unsigned char SEQ_DISPLAY_ON[] = {
	0x29,
};

static const unsigned char SEQ_DISPLAY_OFF[] = {
	0x28,
	0x00, 0x00,
};

static const unsigned char SEQ_SLEEP_IN[] = {
	0x10,
	0x00, 0x00,
};

static const unsigned char SEQ_SET_HX83102P_CABC_OFF[] = {
	0x55,
	0x00,
};

static const unsigned char SEQ_SET_E9_VSOM_SOFT1[] = {
	0xE9,
	0xFF,
};

static const unsigned char SEQ_SET_BF_VSOM_SOFT[] = {
	0xBF,
	0x02,
};

static const unsigned char SEQ_SET_E9_VSOM_SOFT2[] = {
	0xE9,
	0x00,
};

/* platform brightness <-> bl reg */
static unsigned int brightness_table[EXTEND_BRIGHTNESS + 1] = {
	0,
	0, 0, 29, 40, 51, 63, 74, 86, 97, 108, /* 3: 29 */
	120, 131, 143, 154, 165, 177, 188, 200, 211, 223,
	234, 245, 257, 268, 280, 291, 302, 314, 325, 337,
	348, 359, 371, 382, 394, 405, 417, 428, 439, 451,
	462, 474, 485, 496, 508, 519, 531, 542, 553, 565,
	576, 588, 599, 611, 622, 633, 645, 656, 668, 679,
	690, 702, 713, 725, 736, 747, 759, 770, 782, 793,
	805, 816, 827, 839, 850, 862, 873, 884, 896, 907,
	919, 930, 941, 953, 964, 976, 987, 999, 1010, 1021,
	1033, 1044, 1056, 1067, 1078, 1090, 1101, 1113, 1124, 1135,
	1147, 1158, 1170, 1181, 1193, 1204, 1215, 1227, 1238, 1250,
	1261, 1272, 1284, 1295, 1307, 1318, 1330, 1341, 1353, 1364, /* 117: 1330 */
	1376, 1387, 1399, 1410, 1422, 1433, 1445, 1456, 1468, 1479,
	1491, 1502, 1514, 1525, 1537, 1548, 1560, 1571, 1583, 1595,
	1606, 1618, 1629, 1641, 1652, 1664, 1675, 1687, 1698, 1710,
	1721, 1733, 1744, 1756, 1767, 1779, 1790, 1802, 1813, 1825,
	1836, 1848, 1860, 1871, 1883, 1894, 1906, 1917, 1929, 1940,
	1952, 1963, 1975, 1986, 1998, 2009, 2021, 2032, 2044, 2055,
	2067, 2078, 2090, 2101, 2113, 2125, 2136, 2148, 2159, 2171,
	2182, 2194, 2205, 2217, 2228, 2240, 2251, 2263, 2274, 2286,
	2297, 2309, 2320, 2332, 2343, 2355, 2366, 2378, 2390, 2401,
	2413, 2424, 2436, 2447, 2459, 2470, 2482, 2493, 2505, 2516,
	2528, 2539, 2551, 2562, 2574, 2585, 2597, 2608, 2620, 2631,
	2643, 2655, 2666, 2678, 2689, 2701, 2712, 2724, 2735, 2747,
	2758, 2770, 2781, 2793, 2804, 2816, 2827, 2839, 2850, 2862,
	2873, 2885, 2896, 2908, 2920, 2920, 2920, 2920, 2920, 2920, /* 255: 2920 */
	2920, 2920, 2920, 2920, 2920, 2920, 2920, 2920, 2920, 2920,
	2920, 2920, 2920, 2920, 2920, 2920, 2920, 2920, 2920, 2920,
	2920, 2920, 2920, 2920, 2920, 2920, 2920, 2920, 2920, 2920,
	2920, 2920, 2920, 2920, 2920, 2920, 2920, 2920, 2920, 2920,
	2920, 2920, 2920, 2920, 2920, 3770,
};
#endif /* __HX83102P_PARAM_H__ */
